FFF0
FF92
FFB9
0013
000C
FFEB
0006
0033
00BA
FF92
0004
FFE2
005A
0058
004B
000D
0025
009A
FFE5
FF93
FFD9
003A
FFFB
0017
FFDB
0003
0015
FFCB
000E
0010
FFB2
0033
FFFD
FFD0
0018
FFDB
FF8A
FFF5
FFDF
0045
0020
004D
FFE8
001D
0092
FFBC
0022
0011
006B
0038
0018
FFDA
0010
007F
FFCE
000F
0017
FFC9
002B
0008
FFC4
000C
FFCD
FFFD
FFEA
0014
FFCD
0024
0043
0036
001C
0037
FFA9
0010
0003
0067
0028
000A
FFCF
002B
008F
FF7C
FFC4
000B
FFF5
FFFA
FFB8
FFA0
FFA0
0029
FFEC
FFD8
0009
FFDB
002C
0044
0023
0008
0031
000A
003E
FFE4
000B
0051
000F
FFD3
FFAC
0000
FF62
FFF6
000F
0016
0009
FFB8
FFC8
FFC8
003B
FF9C
003D
0004
0036
0003
FFB0
0005
002C
007D
0006
005C
0009
0019
005A
000E
FFF1
FFA9
0003
FFFE
FFE5
FFDE
FFFE
0022
001E
FFC0
FFEA
FFE4
FFC1
0056
001A
0043
000B
FFBF
000A
002A
0079
FFB6
0035
0076
000A
005C
0031
0003
FFCC
0013
0013
000A
FFE9
000E
0037
0043
FFE6
001D
001A
FFBB
0004
FFB2
FFD1
001A
FFCA
000F
FFD5
FFF8
FFDD
004F
008E
0037
004D
000B
0018
FFC3
000B
FFD8
FFEF
000D
FFFE
008C
0045
0068
0051
0041
FFEB
0024
0009
0017
0015
FFEE
003E
FFEE
000D
FFCC
0006
0020
0012
0030
0005
FFFF
002D
FFED
FFFC
FFF5
FFF6
FFF6
004B
004C
007F
0052
0045
0047
0026
006B
FF8F
FFEC
FFE6
0027
FFD5
0010
FFD2
0000
0015
000E
003F
0015
002E
003D
FFF6
002C
001F
0068
0007
FFE0
FFEB
002A
FFF8
FFE9
0051
0033
007E
FFCE
0001
000B
0038
FFE2
0011
0005
0031
FFFC
0046
FFE1
0004
0010
000D
FFD0
0047
0008
0065
0014
0014
FFFB
004A
FFF7
0000
000B
0044
0061
FFB8
FFD0
FFEE
003D
0018
FFB3
002C
003B
FFFB
0052
FFFC
000A
0013
001F
FFED
FFB2
FFE1
0034
0003
0033
FFE6
001D
0041
0034
0024
0042
0067
FFBD
FFEB
0001
0066
003F
FFD4
FFFA
0007
FFBF
0007
FFF0
0014
FFD9
FFFB
FFED
FFEA
FFF3
0033
FFFC
004E
FFE9
001D
0036
0045
FFB3
0028
002C
0033
008B
FFFD
FFDF
FFEB
0015
FFED
0003
FFC8
0016
0003
0020
FFE1
FFF8
FFFC
FFEB
FFE3
000D
0021
FFF2
0000
0061
0010
FFE5
FFDA
0013
000B
0010
0085
FFC4
FFD9
FFEB
001D
FFDE
0008
FFCD
FFB6
0069
0002
FFFB
0037
0034
FFCA
FFCC
FFDA
FFFE
FFD4
FFD1
0039
FFF8
FFCA
FFC3
0047
0039
0004
0018
002E
000E
002B
000B
FFF4
FFF1
FFC2
FFA0
0063
FFF7
FFFE
001E
002A
FFD6
0014
FF89
FFAF
0034
FFEE
001D
0028
0007
FFBB
003B
000D
FFFB
0019
002A
000B
000C
FFF8
002D
FFFA
FFE1
FFF9
0050
FFF9
0018
FFE4
FFD8
FFE7
0013
FF7B
FF98
002A
FFFC
0023
0024
000A
FF6C
0049
0011
0010
0034
000A
FFD1
FFE1
0017
0025
FFF4
FFE3
FFFC
006F
000A
0006
FFF4
FFE5
FFBA
FFF7
0031
0011
0058
FFEB
0026
0038
002D
FF84
0026
FFFE
FFF7
0019
FFF9
FFD3
FFC1
000A
FFC8
FFDE
0040
000D
FFFC
FFF9
FFEA
001E
0063
FFC5
FFE2
0011
FFF5
0034
FFC5
000E
0023
000C
FFE9
FFD3
FFCF
FFFB
0006
FFB3
FFDA
FFBB
FFD0
FF9A
FFCB
002A
0027
002C
FFF5
FFEC
001E
0063
FF54
FFDC
FF93
0058
003C
0063
0000
FFE0
FFED
FFDB
000B
FFC2
FFF8
FFF1
FFB6
FFFE
FFDE
FFCB
FFDB
FFB8
FFC5
0026
FFB9
FFDE
FFAE
003B
FFFE
003F
FFC8
0018
0053
0011
006F
FFD9
002B
005A
0004
0033
0046
FFDE
0060
0024
FFD4
001F
0002
0054
FFA6
FFC5
0003
FF8B
FFD3
FFC9
FFF7
FFFF
FFE9
FFB2
FFD0
FFE8
FFDE
0011
FFB2
0031
001D
FFE6
0020
0022
FFDF
0032
002A
FFD6
FFFD
0000
001F
0019
0027
000F
004A
0052
003A
0022
0047
FFD3
FFA0
FFBA
FFCC
FFED
FFFC
FFA5
0016
FFE7
FFE7
FFBB
FFD6
001C
001A
FFFA
0045
003C
006C
FFE8
FFF5
FFEF
FFE0
0010
003B
0025
0005
0029
0019
0033
FFDB
FFFE
000E
0006
FFF0
FFD9
FFF8
FFC0
FFA6
FF9F
FFFC
FFDB
FFC1
0012
0025
0043
0033
0012
FFD6
0048
0005
FFA5
FFE2
FFC1
FF8D
0031
006B
0015
0026
0047
001B
000F
FFE8
000E
000F
FFF8
FFE8
0012
FFF8
0005
FFE5
0006
0017
0053
0035
0006
004A
001B
FFC8
0008
FFF8
FFB9
FFEB
000C
FFF4
FFD4
FFB1
FFF4
FFDB
FFB4
FFE8
0039
0006
FFE5
001C
002D
0033
0003
0028
0036
0006
0025
FFF8
0004
0012
FFD9
0020
FFFC
0011
0010
0028
FFF6
FFE2
FFCB
0018
FFDA
FFBC
FFE5
FFBD
FFE2
FFE7
FFC9
001D
FFE3
0009
FFB5
FFF4
0010
0027
FFFE
0010
0012
FFD4
002F
FFFD
001A
FFDD
0019
0014
0010
001C
FFFC
FFEC
001F
000C
FFEE
FFF5
FFFA
FFD8
0029
FFF2
002E
FFCF
FFF7
0012
0000
FF75
FFE1
FFF4
002D
FFCB
0009
FFEB
FFEA
000D
0017
0010
0006
0010
0028
0032
0015
004E
0007
006E
FFFE
FFF2
FFFE
002F
FFF6
FFFE
002D
0019
FFA5
000B
FFF2
003C
0002
0022
FFFA
0014
FF96
FFF4
FFA7
FFCD
FFA3
FFD5
FFFD
FFCC
004C
0002
0047
0011
000B
0003
002F
FFF8
0000
000A
001A
0049
FFB3
FFAF
FFE7
001D
0020
FFAB
FFF8
FFAB
0007
FFBE
FFE8
FFC8
FFF3
FFFB
FFCA
0029
FFE5
FFFA
FFFD
0036
0025
002F
0003
000D
0017
0027
0046
FFAC
FFAA
FFF4
0041
0038
FFA8
FFE8
FFF1
FFB1
FFEB
FFC8
000B
FFE4
001E
FFF0
0031
FFDD
FFEE
0005
0040
001B
0049
0011
0014
0019
0012
FFFE
FFDB
FFED
FFEC
002B
0031
FFE9
0003
0013
FFCB
0012
FFEC
0020
FFFC
0019
0010
FFE7
0002
0010
0041
FF98
FFDB
0048
0035
FFEC
0019
001B
002C
FFF6
FFFF
001F
003D
004C
FFED
0004
FFF6
000B
FFFB
FFFE
FFE1
FFF6
FFF9
FFCC
FFEB
FFE2
FFDA
0010
FF6E
FFC0
002D
0010
FFEB
FFE0
004A
0031
FFCD
0001
000D
0020
003B
001D
FFEA
FFD7
0014
FFFA
FFFA
FFDB
FFE5
FFCD
FFC0
FFDA
FFFC
0018
FFD9
FFF6
0030
0045
003C
001D
FFD9
0033
0012
FFD8
FFE5
000D
0000
0023
000A
0039
FFF3
FFE6
0000
002D
FFFB
FFFA
FFDA
FFDA
FFC7
FFEA
FFF7
FFD6
FFDE
001C
002A
002A
000C
0011
002F
FFCC
FFDB
FFFC
FFFB
0002
FFF3
FFCD
001F
FFFC
FFDF
0017
0050
FFF8
FFFB
FFEF
FFE2
FFC8
FFFE
001B
0002
002E
FFE3
0012
002A
0040
FFFE
0033
FFE6
FFE6
FFE9
0017
FFF2
FFE4
FFC3
FFB5
0004
0057
FFB3
003F
FFD9
FFD5
FFEE
001C
FFEB
FFEA
0015
000A
001E
FFE8
0025
0022
0019
FFE7
FFED
FFD8
000F
0008
FFD1
FFF0
FFD0
FFDB
FFC5
0001
004E
FFAB
001C
FFD2
FFF2
FFFC
001D
FFFA
FFF3
000E
0002
0019
FFB4
0030
FFD9
001B
0016
0003
FFCC
0004
FFEE
FFD4
0001
FFEC
FFD2
0034
FFD9
FFDF
0022
FFBE
FFF4
FFE2
0055
0022
FFDE
001A
002C
0014
0012
FFB7
0037
0003
001A
0023
FFA6
FFC1
FFF3
FF7E
000F
FFBD
FFBB
0030
004C
FFB9
FFBA
0001
FF9D
FFC5
FFF1
FFFF
0016
0001
FFD6
FFF0
FFF2
FFF8
0034
FFCC
0049
0022
0052
FFDC
FFEC
0041
FFD8
0056
0010
002C
0042
FFFC
FFD9
0013
002E
002F
0006
001F
0072
FFD2
FFE8
FFC2
FFE5
FFDC
FFF8
0006
FFB5
0036
FFED
FFF8
FFC9
FFEA
0027
0001
0015
004A
0035
006A
FFE9
FFF5
0001
000F
0016
FFF4
FFEF
005F
FFCB
FFEB
FFFE
FFDA
0068
0036
0019
0020
0041
0008
FFD7
FFAC
FFB8
FFFD
FFEC
FFD8
0018
0006
002A
0043
0007
FFF0
0032
FFF7
FFAA
0010
FFDD
FFB1
FFE2
FFDE
FFAC
003E
0000
FFDA
FFF1
0005
FFDC
FFA4
0018
FFD6
FFFF
FFFC
FFD6
FFE1
000B
FFEA
0033
0025
0005
003E
0011
FFAE
0010
FFE7
FFC9
FFF2
0011
FFDA
FFDD
FFA4
FFEE
FFE1
FFA4
FFF7
FFB5
002B
0003
002A
000D
000E
0016
0057
0019
0006
000E
0005
0016
FF8A
FFCF
0039
FFE2
FFD1
0000
0019
FFE7
FFD5
FFC3
0008
FFFA
FFCA
FFF4
FFBC
FFDB
FFDE
FFC9
FFFD
FFEB
FFFA
FFB0
0004
002B
0003
001D
0036
FF94
FFF4
004A
FFE3
FFF7
FFDF
000B
FFF1
FFE6
FFE6
FFDD
0022
FFF4
0005
FFEB
FFD7
FFD8
FFC1
FFFD
FFD4
0003
FFB9
FFFD
0017
FFDA
FF7D
FFEC
0001
001B
FFCC
0003
FFD7
FFDB
FFF6
FFE1
FFDB
FFE4
FFDD
0029
FFFB
0003
0014
003E
000C
0021
0012
0016
000A
FFE4
0007
0017
FFF7
FF80
FFEE
FFDC
002B
FFFA
0005
FFED
000A
FFA4
FFEE
FF99
FFC4
FF8E
FFBD
FFE4
FFC3
0045
004A
0025
000E
000C
0005
0001
0006
0027
0011
001E
0016
FFED
0002
FFF4
FFE1
0022
FFE4
FFEF
FFB8
0006
FF92
FFC8
FFA6
FFE1
FFEA
FFC3
FFF1
FFDE
FFE1
FFE9
000F
0026
000C
0000
0011
0021
0013
0030
000D
0012
FFE8
FFFF
0022
FFEE
0027
0000
FFC9
0004
000A
FFCD
FFD4
002F
003E
000D
FFDF
FFD1
FFD3
000C
0023
002B
0015
0005
0009
0009
FFF2
FFBF
FFAC
FFC4
001D
0020
FFE4
0046
001C
FFDE
002D
0011
FFE5
FFD3
0050
0055
000B
0017
000F
FFF4
FFE3
FFDD
0009
FFDC
003C
0040
0006
0019
0000
FFDB
0010
0051
004B
000C
000B
FFCB
FFFD
FFE9
FFEE
FFE5
FFFF
0000
FFDB
0017
0020
0033
0025
0006
0008
001C
FFF9
002B
000F
0038
0007
002F
0007
FFB7
0046
FFF4
FFF5
0004
FFCD
000B
FFF5
FFF0
FFE3
FFFA
FFEA
FFD9
FFD5
0012
003B
FFE6
FFE8
0035
005B
0033
002D
001B
002D
0009
002D
0008
FF95
0034
FFF7
FFFA
FFFF
0027
0050
0003
FFD1
FFD3
0005
FFB0
0001
FFDC
0008
002F
FFDE
FFEE
002E
004A
0042
002F
0015
003D
FFD5
FFD3
FFD1
FFF6
0027
0000
FFCD
001C
0032
003F
0016
FFEB
FFC4
FFFA
FF95
FFF6
004C
FFFF
001F
FFE9
0001
FFEA
000A
FFC5
FFDC
FFEB
003D
FFF4
FFE8
FFF7
000F
0017
0007
FFDC
FFE5
001F
006B
FFCB
0001
FFDF
FFF5
0011
0030
0028
FFED
FFFB
FFE8
0016
FFF4
001A
FFE9
FFE0
FFF1
003A
002F
FFE1
001B
000C
002B
003D
0023
FFEF
0007
0046
FFA1
FFE8
FFC8
FFD9
0014
0026
0009
001D
0022
FFF2
FFD9
FFB7
0025
0000
003C
FFEC
0029
001C
FFC9
FFEF
FFFF
000D
001C
000C
0032
FFF9
0014
FFF3
001F
000A
0044
FFF1
0017
FFF2
002B
0020
FFF3
000E
FFC0
0040
0015
002C
002A
FFA3
FFE1
0011
FF8F
0009
FFC5
FFDC
003C
0011
0024
002D
FFF4
0011
0030
001F
FFFD
0011
0043
FFC5
0012
0003
FFF2
FFA2
001D
FFD9
002D
0020
FFCC
FFC0
0012
0004
0033
0004
0028
0020
FFDC
FFD7
FFE1
0024
0020
0018
0009
006F
FFD5
FFF5
FFC6
0013
0012
FFD4
0001
FFFC
FFAC
0019
FFE3
FFE3
001A
002D
FFF2
0002
001E
FFFD
FFEA
FFE9
FFEE
FFEB
0018
000A
FFF4
FFE7
005F
FFCE
FFDA
0000
FFD1
005C
0022
002D
0016
0042
0000
FFE7
FFF3
FFF7
0032
FFF0
0019
0029
0011
FFCD
FFF4
003A
0011
000C
FFB5
FFDC
FFFB
FFCE
FFCD
FFF9
FFEA
FFB2
003A
0010
0014
0013
0017
FFE8
FFC2
0054
FFE2
0008
0029
0000
FFFB
0038
FFFA
FFFD
000F
000F
FFEC
FFC0
FFBE
FFE9
FFC6
FFD0
FFD1
FFDD
000E
FFF3
0026
FFCC
FFEA
FFA9
FFDB
FFD6
0060
FFEA
001B
0031
0031
000A
004C
0012
0015
0017
0008
002C
FFB0
FFDE
0041
FFF8
FFE3
FFC4
FFE8
0016
FFF7
0030
FFD2
FFFF
FFBB
0005
0001
FFFB
0014
FFD2
FFEC
FFBC
0015
FFE6
FFCA
000A
001A
0000
0030
FF9B
FFDA
003C
FFE1
FFEF
FFC2
0002
FFFC
FFEB
FFFB
FFE7
FFFA
FFF7
0013
0003
0013
0027
FFDF
0000
FFE1
0020
0000
FFF2
000F
FFE6
0023
FFA0
FFE2
FFD5
FFF0
FFEC
0044
FFDF
FFFF
FFF7
FFE1
FFF5
FFF1
0020
000C
000D
0013
0039
0037
001B
003E
003D
FFF6
FFEA
001B
002F
FFE9
001D
FFB6
FFFA
000A
001B
000D
0054
FFFA
001D
0038
0022
FFD9
FFE4
FFF3
FFF3
0000
0025
0019
0022
000A
001F
0020
FFE5
0001
000A
0038
0014
0025
FFBE
FFEB
FFD6
FFD9
000D
0007
000B
000F
0032
0023
FFD4
000B
FFF7
0006
FFF0
001F
0004
0024
FFCE
FFBE
0004
FFED
FFCD
FFE1
001B
FFDE
000F
FFD2
000B
FFCE
FFD7
FFFC
FFE8
001C
FFE9
FF99
FFF4
0004
FFBC
FFC2
0019
003D
000F
FFFB
003D
FFE1
FFD9
FFE9
001D
FFF3
001A
FFFD
0022
0023
002B
FFE5
FFE9
0025
0028
0026
0038
000E
FFC0
0029
FFF7
FFC1
FFE2
003D
0053
FFF4
0002
000D
FFDB
FFC8
FFD8
0005
FFDA
001B
FFFB
0027
0022
001E
FFEA
FFFE
0022
002E
002E
0009
0016
FFD7
FFE0
FFE8
FFB9
FFDE
0046
0022
0026
000B
0024
FFF4
0004
0005
000C
FFE3
0033
FFFC
0011
FFED
0018
FFE2
FFC4
0019
FFE1
0003
0039
0042
001F
0031
001F
FFF4
FFF9
005E
0031
0004
0006
FFDE
0011
FFF7
FFD4
FFDA
0019
FFE9
0022
0025
FFFA
002B
FFFE
FFC6
0014
FFDA
FFFF
FFF6
0000
0017
0008
FFE7
FFE8
000C
FF98
FFFF
0003
001D
000C
001B
0002
FFF3
FFF2
0023
0000
0019
0017
FFEE
FFE0
0012
0038
FFDE
FFFC
001E
FFEB
0000
0020
000A
FFD1
FFCE
0001
FF88
FFE3
002B
0002
002C
FFD3
0001
FFD3
0002
FFBA
FFC5
0013
000E
0000
FFEA
FFF7
003B
FFE4
000B
0012
0031
003B
002A
003E
002D
0010
FFF3
0047
0010
0014
FFD6
000C
FFDB
001A
FFE1
0004
FFCF
FFCA
FFE6
0030
000E
FFD8
0000
FFE2
0014
0016
0016
0033
002E
FFF6
0041
0032
001B
FFE2
0044
0019
0018
FFE0
0026
FFBD
FFDD
FFC4
FFF9
FFD4
FFE1
FFE7
001E
0004
FFDB
0004
FFF5
0015
0010
0002
004C
FFFE
0024
FFEE
0030
000F
005C
FFD1
FFFE
0024
FFD1
002E
FFB0
FFD6
FFA1
FFF2
FFBA
FFD9
000C
0023
FFF8
0030
FFC6
FFE3
0001
FFD5
004F
0014
0008
0016
FFF2
0007
001F
0028
FFCE
FFEB
0017
FFB3
000B
0008
FFE5
FFBC
0023
FFDB
0014
FFFB
0020
0001
0035
FFDC
FFF0
FFFB
FFE1
0054
FFCF
FFA8
FFF8
0069
FFCB
0016
0066
002E
0011
FFFB
FF95
FFF6
FFF4
FFDD
FFE0
FFE2
FFA1
0000
FFE6
FFC3
0014
002C
0020
0016
0019
0005
FFE4
002C
FFEE
0008
0012
FFFF
FFCB
0012
FFC7
FFFA
FFD1
0003
001C
0041
FFC1
FFEA
0005
FFE7
FFAF
FFCF
FFD9
FFEC
0025
0011
0015
0015
0003
FFD6
0018
002E
0008
0006
FFC7
FFE7
0012
FFCA
FFDA
FFD1
000D
001F
0058
FFDB
FFF6
0002
FFC2
FFAD
0011
FF95
FFF0
FFD0
FFE4
0012
FFC2
FFE5
FFD5
001D
0015
0026
FFFE
FFDF
FFD6
FFF8
FFC1
FFD5
FFF3
FFF6
0015
0024
005F
FFF3
000D
FFAA
FFE2
0029
FF9F
FFEA
FFB7
FFF8
FFFE
FFD4
FFDC
FFD7
FFF0
0026
FFD6
FFFB
0023
FFC6
FFFE
FFEF
FFC1
0000
FFFE
002A
0025
005A
FFFE
0026
FFB7
FFFB
0016
0011
002B
FFF1
0011
FFE5
002D
FFE9
FFFA
000A
001A
FFED
0008
001A
FFD3
000F
FFF3
FFD7
FFB0
FFF3
FFD6
0027
FFF9
FFDC
001F
0002
FFF6
0016
000E
0039
FFF7
0033
FFF7
002F
0015
0002
FFF9
FFC4
0027
FFAB
0008
FFF0
0004
FFEC
002C
FFAE
FFEE
FFDD
0018
FFF1
FFD6
001D
0019
FFEC
FFFB
002C
0009
0000
FFBE
FFDA
FFEE
0012
FFF9
0013
FFD1
0021
FFCA
0014
0000
001A
0017
004B
FFDA
0012
004D
0028
FFF2
FFFE
FFEA
FFEF
FFEA
0010
001C
FFED
0004
FFDB
FFCF
0005
002D
FFFB
0003
005A
0026
FFD6
FFF1
FF99
FFFC
FFFB
000E
FFE3
FFE4
0019
0009
FFC1
FFEB
FFCB
FFE2
FFB7
0015
001B
002B
FFFE
FFEC
FFDC
FFD4
FFA2
FFFF
0002
0065
0004
FFE2
FFE2
FF9F
FFDE
FFF0
FFD6
0014
000B
FFE5
0027
FFFC
0003
0046
0043
FFD6
FFE4
FFEF
FFF7
FFD0
FFCA
FFA2
FFE2
FF9C
FFF7
FFF2
FFF3
0008
0019
FFDF
0002
0030
0014
0030
0000
0003
FFD8
001A
FFFE
FFFB
0047
0027
FFD6
FFDF
0002
0000
FFF0
FFF3
FFF3
FFE6
FF95
0027
001E
000C
001E
0028
FFEB
0009
003A
002C
002E
FFF2
FFEB
FFC6
FFA0
FFEB
FFD6
FFDD
0010
000F
0007
000F
FFF9
000D
0024
0013
FFF3
FF9A
0017
0001
FFE6
000F
FFD1
003C
FFC8
FFC9
FFC9
000D
0016
001F
0005
FFF2
0015
FFF2
FFDD
0027
0028
FFF6
FFF2
FFCB
FFFA
FFE2
FFE2
FFDD
0003
FFF0
000A
FFD4
0010
FFC7
005E
FFDD
FFF0
FFD5
002D
FFFE
FFD0
008A
FFF4
FFB6
0034
FFE6
FFDF
000A
FFBE
FFF9
FFEA
FFF5
FFE6
FFEC
FFE4
0008
0000
FFF9
FFFD
FFEC
FFBE
FFFC
001B
FFD8
FFDB
001C
0010
FFFC
008D
FFFB
FFB0
0062
FFF8
FFFD
0013
FFFC
FFC0
0021
FFF5
FFFD
001E
FFF0
0007
FFBB
FFF8
FFF8
0000
FFD7
FFEB
002F
FFD8
FFE4
0017
FFE8
000B
FFE8
0010
0025
FFEE
FFE2
0017
FFF2
0000
FFC1
001E
0000
000D
001E
FFD6
FFFF
FFB4
FFCC
0025
0000
FFF2
FFD7
FFCD
FFB8
FFD1
0016
FFE8
001B
0004
0027
002C
0011
FFE7
0037
001E
FFEC
FFCB
0012
FFB8
FFF8
FFD6
FFF8
FFC7
FFD0
FFE0
0047
0004
001C
000B
FFE5
FFE8
0006
002D
FFAF
FFB0
0038
FFE5
FFF6
0015
FFE9
000A
FFD7
001A
FFE8
001A
FFB8
0009
FFCC
0000
FFC4
FFC9
0025
0035
001B
003D
FFE9
FFDE
0038
FFC7
003A
FFE3
FFD9
0059
FFE9
0006
002E
0008
0023
FFE3
FFCB
FFFC
0018
002A
000D
0007
002E
FFBD
FFDD
FFDC
0012
FFEF
0032
FFEB
FFDD
0012
FFC2
0022
FFAD
FF9C
000A
006A
FFDB
0000
0068
0031
001F
FFBE
0009
FFF8
003D
FFF4
FFF3
002E
FFA9
000A
FFE5
FFDE
0037
0043
FFE5
005C
001F
003D
FFF0
0023
FFF8
0008
0012
FFCC
FFC6
0012
FFCC
FFF8
FFE1
0004
0007
0046
FFDD
FFDC
001F
FFFE
FFB6
0001
FFE2
FFF2
0026
FFF2
FFE9
FFC7
FFD4
FFE9
FFCC
FFFB
FFEE
FFCE
0013
FFE6
FFD5
0000
FFF4
FFE7
0014
0020
0058
FFEF
FFD4
000B
FFF5
FFAB
0031
FF9A
FFF8
FFC0
0029
0017
FFDF
FFD4
FFCF
FFD8
0001
0012
FFDD
000B
FFFF
FFC8
FFFA
FFEA
FFE6
FFD8
000F
FFD2
0033
000E
FFEC
FFDE
000E
0044
FFAE
000C
FFC4
001A
FFEB
FFEF
FFD0
FFE1
001B
0019
FFF5
FFE6
003A
FFB5
0003
0004
FFC2
FFFF
FFDD
001E
FFFB
0029
FFFF
FFE2
FFD9
0013
FFB2
FFF6
FFF0
FFFA
FFFB
FFFE
004D
FFFE
0005
003E
0027
000F
FFEF
0030
FFC4
0007
FFFB
FFDA
FFD7
FFF8
FFEB
0015
FFCD
FFE2
0014
0009
0025
0000
0000
0006
0007
0018
001A
0044
FFDA
0005
FFEB
FFF5
0000
FFD0
FFEC
0006
0014
0003
FFE7
FFD0
FFFB
FFEB
0001
FFCF
FFD8
0018
000B
0021
0012
001F
0028
0006
FFB9
FFD6
FFFC
0004
000C
FFE8
FFE4
FFED
FFCF
FFF5
0016
0025
FFEC
FFD4
0016
FFE4
FFC2
005C
001F
FFDB
002A
0002
0011
000E
0022
0002
0001
FFAE
FFF3
000F
0003
FFF2
002E
0040
003B
FFF6
FFE4
FFBB
0009
FFE2
0017
0018
FFDB
FFC8
0055
001F
FFF2
002E
FFEB
000F
FFE0
0045
0020
003E
0004
FF9C
0036
0017
0028
FFE2
0043
0019
FFF4
FFEB
FFBB
FFDD
FFE6
FFCD
0008
0024
FFD5
0030
FFF7
0008
0043
0011
FFF2
FFDF
0039
0011
0022
0002
FFBA
0037
0012
0048
FFC1
FFE0
FF87
FFE0
FFAF
FFE5
FFC8
FFFA
0016
001E
0011
FFE1
0032
FFFE
001F
0047
0022
0010
FFE3
FFFA
FFFD
0021
0027
FFE8
001D
FFD7
0062
FFCD
FFD7
FF77
0006
FFD4
FFFD
FFEC
0012
001D
FF9F
FFA4
FFD4
FFE3
FFE1
FF93
FFDE
0041
FFD4
FFF7
0017
0000
0034
001F
FFF2
0024
FFDB
0051
001E
0016
0028
FFE2
003B
FFF3
FFF7
FFDB
003D
FFC9
FFC2
FFD1
000C
FFE6
FFC1
0004
0049
FFE1
FFE4
FFFA
FFF1
FFBD
FFD6
FFBE
0002
0010
0023
001F
0000
001B
FFF2
0060
FFEB
FFFB
FFE7
004D
0000
FF96
007A
000C
FFCC
003C
0015
FFF1
FFF6
FFD0
0012
FFE3
FFB2
FFD0
FFA1
FFEB
FFFE
000C
0028
0037
0051
FFF0
FFB9
003F
FFF2
FFED
0027
FFEE
FFC3
0073
FFEB
FFAD
0050
FFFD
FFF1
000F
FFFF
FFAB
FFF6
FFB8
FFE0
FFF3
FFD6
FFC9
FFC9
FFF0
0010
0036
FFB1
FF85
FFEF
FFDF
FFCE
0004
0004
FFDE
003E
0036
FFDA
FFE5
004C
FFF4
FFEF
0000
FFB6
0007
FFEA
FFFB
0015
FFE0
FFD6
FFDA
FFEE
002B
FFCA
FFDE
FFC7
FFD3
FFB9
FFDF
001B
0021
FFBB
004E
0047
FFEC
FFF2
005C
FFFC
FFF3
FFE7
FFF2
FFFD
FFCA
FFC1
0030
FFC9
FFF6
FFFC
FFEA
0042
FFED
001C
FFF0
0000
FFE2
0011
002D
FFB9
FFB8
003B
FFEF
FFF3
0017
0000
FFF3
FFC3
FFD4
FFFF
000F
FFE7
FFE3
0062
FFDF
0039
002C
FFD4
FFBE
FFFD
FFCA
FFDD
FFD8
0032
FF8D
0001
FFE9
FFCF
005C
FFF3
000B
001E
001F
0010
FFE2
FFAA
FFE3
000F
004A
0010
0024
0049
FFDE
FFDF
FFFB
FFD6
0035
FFE0
FFE6
FFE8
0044
FFA9
001D
FFE7
FFB3
0083
0008
000B
FFE7
0062
FFD4
0019
FFBD
FFF7
0001
0067
0002
0023
006C
FFD1
FFFD
FFCE
FFD3
002D
005A
FFEA
0068
0036
004E
FFEB
FFB8
FFDC
0061
0015
FFC6
FFCD
0063
FFEB
0023
002C
FFFA
002E
FF96
FFEF
FFE2
0032
003E
003A
002A
0003
001A
0028
0001
0009
FFD8
000D
0016
FFFA
0014
001F
0003
000D
0000
FFD2
0009
FFFD
FFF5
FFF0
0058
0012
0070
FFE0
FFE8
FFF0
FFFD
0039
FFD8
0028
0007
FFDA
FFB1
FFB5
000D
0001
FFE0
001C
0034
000D
0000
000C
FFDA
0010
FFE9
FFFB
0007
0022
FFF8
002D
002C
0017
FFFC
0035
0057
FFBF
0025
FFF1
FFBC
FFBF
FFA9
FFF9
0003
0064
000C
FFF1
0024
000C
002A
001E
FFF3
0030
FFEA
FFF4
001E
FFE7
000C
001C
0000
FFDE
001B
FFC3
0008
0000
FFE8
FFF0
000A
0021
FFFB
0009
0041
FFEB
FFDD
0010
000B
0031
FFFB
FFD4
FFFA
0012
FFEE
0001
0059
0015
001B
002C
FFF9
0032
FFD3
0001
FFEF
FFE9
0002
0009
0012
FFD9
0000
FFB4
FFEB
FFD3
FFAA
FF92
FFCE
0031
FFD3
FFC6
0005
FFFB
0003
005A
0022
FFF8
0007
FFDF
002D
0003
0021
0002
000E
002A
FFF0
0004
FFCE
FFF5
FFCC
FFD2
FFD8
FFC9
FFCE
FFFE
0031
FFC7
FFC1
FFFA
FFE3
FFB9
004B
0005
FFC4
0005
FFFD
0007
FFF9
0023
001E
0037
002B
FFF2
FFFE
FFCF
FFE8
FFB8
FFD5
FFEB
FFFC
0010
FFE5
FFE6
FFF4
0014
FFE8
FFE0
FFC2
0058
0004
FFDF
000A
FFE2
FFE6
FFEE
002F
0022
002F
0003
FFC2
003B
0006
002D
FFDF
FFD9
0001
0011
000D
FFD6
FFE0
FFFA
0033
0009
FFCE
FFFC
0019
FFFE
0004
FFDA
FFBF
FFCD
0003
003E
002F
0041
FFFD
FFCE
002F
FFF2
0046
FFB0
FFE7
FF8E
0016
FFE1
FFDA
FFBD
FFE1
0012
FFFA
FFFC
0032
0014
001A
FFF4
FFE5
FFD6
FFD5
FFF6
FFDA
FFD5
0049
FFF6
FFE3
FFA2
FFD6
FFC8
FFCF
FFF7
FFAE
0048
0017
0023
FFF9
0010
003A
FFB7
FFF4
0003
0014
FFDC
FFE5
FFF1
003E
FFF2
001A
0003
0003
0084
003A
FFDB
FFC9
FFF5
FFED
FFA5
FFD5
FFB5
000D
FFC2
FFD1
FF8B
FFCA
FFDA
FFD0
0001
000B
0017
FFFE
0001
002C
0088
002B
0003
0000
000C
FFDB
0018
FFF3
0025
0014
005C
FF88
FFC6
FFCA
001E
FFC3
FFD6
FF91
FFC8
FFB9
FFC7
001B
002B
0038
FFC1
FFFB
FFDF
FF96
FFE2
FFB7
0010
FFEB
FFB5
0000
FFB6
FFF7
000E
002D
0005
0035
0035
FFF1
FFE1
0034
FFF0
FFEF
0030
FFAE
0008
FFFC
0014
FFD4
000A
FFE8
FF87
FFF6
FFFB
0014
FFE4
0026
0018
0016
002D
FFF8
FFFF
FFFF
0023
001C
FFC4
FFAC
0009
FFFB
FFDD
0009
FFFE
FFCB
003E
001F
FFE3
FFE7
0042
FFD7
FFE1
FFFD
0022
FFD6
001F
FFED
FFF4
FFF3
FFDE
0002
FFBC
FFD0
0022
0002
FFDD
0014
FFDA
0017
FFF2
0001
FFCD
0034
0043
FFEB
FFEF
0052
FFF3
FFCE
FFF8
0011
FFFA
FFD9
FFA2
003D
FFD2
0017
0014
FFEE
FFFB
005B
0022
FFB0
001F
FFDE
003A
0003
FFE9
FFDE
FFBF
FFE6
FFE8
0014
FFF9
0006
FFDF
FFEF
0016
000A
FFEA
FFCD
005D
FFE0
0036
002B
FFFA
FFE1
0004
FFCC
FFCD
FFC2
0046
FF96
0007
0002
FFE1
FFCB
FFF5
FFFB
0031
002D
001E
FFF6
0024
FFCF
FFF5
FFBD
0019
0044
000F
FFDB
FFD3
0000
FFDD
001F
FFDF
FFD2
FFED
005C
FFA2
001E
FFE1
FFB8
005D
FFFF
0006
FFCB
004C
FFDB
0011
0024
FFE2
FFFF
FFE0
0007
0055
001F
FFE1
FFE1
FFFA
FFDF
0001
FFCE
FFE9
0012
FFDB
FFD8
0000
FFEC
FFEB
005C
0017
FFF9
FFCB
0067
FFE4
001B
0026
0000
004A
FFD0
FFE8
0004
0052
0040
0041
000A
FFFC
002C
FFE2
0003
002C
FFEE
FFE6
FFF9
FFB7
FFA9
FFC7
0026
003C
003B
FFFE
FF95
FFB2
0005
000E
0067
003E
004D
FFEB
FFF1
001F
0011
0047
FFEE
0049
001A
FFC8
FFB6
FFE6
001C
0025
000A
0030
008E
001B
0063
0042
FFD3
FFEE
000E
0028
0007
0012
001D
0037
FFD0
0004
0000
0051
005D
FFD1
003B
FFFE
FFC2
FFC9
FFBA
0007
0020
0050
FFF7
FFE0
0028
0004
0022
002E
FFE9
000A
000C
FFF5
FFFD
FFFA
0035
FFD7
FFF6
FFF3
001B
FFDC
0018
0044
0048
0023
FFEC
001A
001E
003F
0019
FFD4
FFC3
0015
0009
0010
FFF7
FFD1
FFE6
FFF9
FFE2
FFF3
005F
FFE3
FFF1
001F
FFF2
0022
FFC9
0007
001B
002D
0000
FFC0
FFDD
FFF9
000C
FFAD
0017
000E
FFE3
0020
0000
FFCD
0018
FFF6
FFC4
FFEE
FFD4
002A
FFED
FFF7
FFF9
FFC5
002D
FFC9
0009
FFEE
FFFB
0004
FFFE
FFF2
FFB3
FFDA
FFA9
0021
FFE1
FFBD
002E
FFEB
FFBF
FFF8
FFFC
0000
FFF7
FFDD
FFFC
FFF8
FF80
FFD2
FFEC
006B
FFDA
0001
FFFC
FFF6
0037
FFFD
FFEA
FFC7
FFDC
FFC5
FFC5
FFE8
FFE9
0002
FFB4
FFDE
000D
0020
0042
FFFB
FFEA
FFFD
0019
FF9C
FFF8
0008
007E
FFB9
FFF7
FFFE
FFA7
FFF2
0016
FFD5
FFFA
FF86
FFC9
FFCE
FFF8
000D
FFDE
FFC0
FFCF
0000
0030
000D
FFA5
FFE5
0007
FFF6
0012
0000
FFC0
FFCE
FFD6
000A
0016
FFE0
0004
0011
FFE1
FFF8
FF9E
FFFA
001E
FFD3
001A
FFD8
FFC8
FFE6
FF8A
0016
FFEF
FFCE
0000
002A
0001
FFEC
FFFD
FFB7
FFC8
FFF5
FFC6
FFDD
004B
FFE1
FFC5
FFBC
FFE1
FF9A
001C
0040
FFF5
0012
FFF4
FFD0
FFF4
FFA3
0036
0004
000B
FFD5
FFC9
000C
FFF3
FF9C
FFEA
FFF9
0018
FFF3
0002
0073
0019
FFE4
FFE8
0007
FFBB
FF94
FFB3
FFAD
FFE3
FFA2
FFAB
FF8C
FFC0
FFD2
0006
FFFE
FFF1
000B
0051
0009
FFC4
0007
0008
0011
0018
FFF0
0026
FFD6
FFCE
FFAA
FFFD
0035
FFBC
FFC8
FFD4
0001
FFBA
FFD6
FF92
FFC5
FFD7
FFF4
000C
0045
0042
FFB7
0000
FFD2
FFA0
FFF4
0011
0024
FFF0
002C
FFFE
FFDC
FFD0
0011
004C
FFCF
FFC3
FFCD
FFD9
FFD5
0022
0051
000C
0018
FFC0
0004
0014
0016
FF99
FFF5
FFE4
FF9C
0001
0030
0012
000F
000C
0009
FFEB
0035
0016
0027
FFC6
FFC2
FFBF
FFC2
FFEA
000E
006A
0005
0021
FFC0
FFC4
FFDB
FFF4
FFF2
FFFD
FFD3
FFDA
000C
FFF5
0001
0001
001F
FFF9
000F
0026
FFFE
000F
FFD0
FFC5
001C
0024
FFCC
0024
FFFB
0000
0015
FF9E
FFBA
FFDB
FFE1
FFEC
0012
FFB8
FFC1
0000
FF9C
FFE1
000C
000E
0036
000E
0015
FFC5
FFF0
FFE3
FFEA
0039
003F
FF97
001E
FFDA
000F
000C
FFCF
FFBC
FFAB
FFEC
FFE2
0026
0026
FFF2
FFDF
FFB5
0003
0010
000C
0016
0021
0017
FFBA
FFE6
FFA4
FFBF
0016
0024
0027
FFF0
FFDA
FFE3
0013
FFFB
FFE0
FFCD
FFF8
FFE9
0019
004A
0011
FFF0
000C
FFC5
0005
FFB3
000D
0014
FFE8
FFD6
FFD0
FFBA
FFBD
001A
002D
001C
FFF2
FFE8
FFEF
001F
FFD1
FF7C
FFF4
FFD3
001D
0018
000F
0005
0020
0042
FFF1
0024
FFC2
0005
003C
0018
FFF9
FFFB
001A
FFE7
0001
FFCE
FFE1
FFF9
FFE6
FFE8
000C
FFE0
FF94
0005
FFE6
0012
0052
0030
0017
0042
0006
FFBD
0021
0009
FFF3
FFAE
FFD5
000B
0000
0034
000C
002C
FFF4
FFF9
0010
FFF4
FFE3
002A
FFEF
FFC3
FFF6
0033
003D
0052
0023
FFC9
FFC0
0020
FFD5
003A
0025
001F
FFCA
0000
002A
000E
FFC1
FFA8
FFE3
0031
0014
0059
006A
FFF3
FFF5
001F
0040
0097
003F
007A
0066
FFED
001A
FFFC
000C
FFFE
0011
0028
0030
FFD9
0010
0004
001A
001B
000C
0046
000C
FFD9
FFF6
FFFC
FFF3
0027
FFE9
FFF8
000E
FFC8
FFA1
FFF0
FFA1
FFFC
000E
000B
FFF7
0006
0031
0049
FFE9
FFFF
0001
FFFD
FFDA
FFFA
0030
0050
004F
FFFD
0037
000D
0039
FFCD
FFFC
000A
FFD3
FFA9
FFDC
FFA8
FFC6
0002
0001
FFEE
FFE9
001C
003D
002F
0058
FFB9
000B
FFC8
0004
001E
0049
002E
0008
0012
FFF6
000D
FFC8
0025
0003
FFE9
0019
FFFD
FFBA
0007
0006
FFFA
FFD6
FFE5
FFFC
001A
0022
0045
FF9C
0005
FFE2
FFC0
0026
FFF6
0036
FFEF
001B
0013
0000
FFAD
003A
FFEF
FFDA
003D
FFF2
FFC2
FFFE
FFEC
0018
FFED
FFEA
0030
001D
FF9E
FFF4
0007
007B
FFD7
FFA8
0010
FFE7
0016
FFDB
0001
FFEB
FFDF
FFFF
FFB5
0016
FFE2
0036
FFE2
0026
FFDA
0015
0023
FFE0
FFDD
001F
0022
FFA0
FFFB
000A
0062
FFC7
FFF5
FFFA
FFA3
000B
003C
FFEB
FFFD
FF96
0000
FFBA
000B
FFE3
0037
FFF9
0032
FFD0
0027
0065
0005
0025
FFFB
FFBF
FFF4
FFF6
FFC7
0039
FFD7
0001
000D
FFC1
0009
0028
FFF5
FFFC
FFA1
FFF3
FFF8
FFB7
0014
FFC8
FFB6
FFED
FF95
0001
0061
0000
000F
FFFC
FFBA
FFD5
FFE8
FFC9
0048
FFD2
FFA6
003C
001E
FFE9
0015
0030
0015
0022
FFED
0018
FFBE
0001
0013
FFCE
000B
FF98
0019
FFED
000A
FFDB
FFDF
0011
0012
FFBD
FFC7
FFE4
FFDF
FF97
0028
0009
FFDD
FFF5
0018
FFFB
0031
FFB8
FFD9
FFCC
FFE4
FFC1
FFFB
FFC2
FFC5
002E
FFFD
0017
FFFB
FFFF
0035
001E
FFC7
FFED
FFEF
FFD0
0011
FFD4
0018
FFE8
FFEE
FFA5
FFFE
0004
FFAD
FFF6
FFE1
FFFD
FFF2
0020
FFCB
FFAC
0050
0032
FFCD
FFD1
0021
FF86
FFF9
0020
003C
FFFF
FFCF
0010
FFC6
0021
FFE3
FFEF
FFC4
001B
FFFB
FFC6
FFA8
FFAC
FFD1
FFCF
002A
0057
000B
000F
003E
FFE7
FFC2
0046
FF94
001E
001F
003F
0004
FFD7
FFC6
FFCE
FFF5
FFE0
FFE0
005D
FFDF
0035
FFAC
FFB0
FFB8
FFCA
FFDD
0032
005A
FFFB
0001
FFCB
FFCE
FFFE
FFF3
FFF0
FFFB
FFEA
FFEF
002D
FFD1
FFD2
FFD9
FFEB
FFD4
FFF4
0072
FFFB
0026
FFA8
FFE1
0024
FFBF
FFC6
FFF4
000F
FFFE
002D
FFAF
FFC1
FFFB
FFCF
FFCD
FFFD
FFCB
FFB5
000E
FFCD
FFF1
FFF9
000C
0024
001D
002C
FFFD
0012
FFAA
FFD4
0030
FFB3
FF9F
FFD1
0007
000C
0002
0039
0021
0043
FFC7
FFD8
0002
002E
FFFD
FFF7
FFD2
FFFC
FFF3
FFFF
0004
0010
0004
FFCD
FFF7
FF97
FFA6
FFF3
FFF8
FFF9
FFCB
FFD6
FFC3
000C
004D
0025
0038
FFD7
FFC6
0007
0006
FFFD
FFE6
FFE1
FFB7
FFB6
FFA1
FFB0
FFD6
FFFD
0009
FFD6
FFC5
FFAF
000C
0005
0014
FFEB
FFE8
FFED
003A
FFD7
FF83
FFF0
FFAC
0023
000E
000D
FFE6
001D
0001
FFE2
FFD8
FF9B
FFCA
0000
0015
0013
FFCE
0017
FFDA
000B
FFEF
FFC3
FFC5
FFC4
0012
FFF3
FFCE
FFAD
001E
FFD8
0041
0051
0023
0018
0046
FFF8
FFC6
FFFF
0021
FFFB
FFA3
FFEE
0000
001A
0029
FFF4
0014
FFFA
FFE6
FFDF
FFEF
0009
000B
0027
FFE5
0023
FFE4
FFAA
0029
FFE3
FFFE
FFF9
FFF1
FFC4
001E
0014
0017
FF9F
FFF3
0010
0015
FFB0
FFAB
FFF6
002E
0012
0060
0058
0005
FFE6
002F
0016
003C
0020
FFA2
0035
FFFB
000B
0018
0004
0030
003F
004E
0020
0051
002F
FFE2
000E
003F
001C
0042
0005
0011
FFEA
FFF1
0002
0050
FFD9
FFEC
002F
FFCE
FFBC
FFCA
FFB6
FFE7
0011
FFFE
0034
0065
FFFD
FFFA
0099
003D
FFF4
0028
0003
FFAE
FFF8
000E
FFDD
FFF3
003C
FFAC
FFE4
FFCA
FFFB
002E
FFE5
FFCF
FFAC
FFB5
FFD3
FFFA
FFE7
FFFB
0024
002F
0057
001D
0049
FFE1
FFF6
0002
FFA5
FFE7
0003
0000
FFFD
0019
FFBC
FFDC
0031
001E
0023
FFE5
FFCD
0018
0046
003A
0044
FFE9
FFD8
FFF7
FFF5
002A
000A
002E
FFBF
FFF4
FFFF
FFB8
003D
FFF6
0038
FFD1
FFFF
001A
001F
0007
0000
0015
FFA9
FFBD
FFEB
000B
0022
0017
FFF3
000E
002A
0040
FFF5
0020
002C
0016
FFEF
FFE8
FFA6
0019
FFE5
0026
FFD4
FFE7
FFF5
0014
000C
FFD2
002F
FFDF
0038
FFEC
0026
FFD6
0030
FFE1
FFF8
0014
0013
FFFC
001D
000F
0011
FFF4
FFE8
FFF1
0011
FFFE
0030
FFE0
FFEF
FFE2
FFEB
0018
FFE7
0016
FFFA
0047
FFFD
0032
FFDC
003D
0068
000B
002A
0015
FFB9
FFFF
FFFE
FFC8
0034
FFF9
FFEF
000B
001A
0023
FFE9
0000
FFEE
FFFB
FFC9
003C
FFD1
0040
FFB6
FFA2
000F
002F
0003
0087
0017
0023
002B
FFC4
0000
FFFA
FFDB
0050
FFCE
FFB7
003F
FFFA
FFE2
003D
0033
0027
001E
FFD5
003B
FFBF
002D
FF9C
FF8E
0015
0017
FFFC
FFD6
000C
FFF7
FFF2
FFF8
FFCC
FFD9
0019
0008
FFBB
FF9A
002C
0008
0009
003F
002C
000A
000D
FFA9
FFD3
FFC8
FFEE
FFBB
0031
FFCB
FFD2
0027
FFD2
0003
FFE3
FFEE
FFFB
FFCD
FFC8
0013
0004
FF9B
FFF2
005A
FFF1
0003
000E
FFDE
FFB4
0022
FF9A
FFD1
FFD5
FFD7
FFC2
0048
FFC3
FFB3
001F
001A
FFCF
FFB0
0004
FF73
000A
FFED
0013
0000
FFA8
FFF3
0053
FFF6
FFF0
0003
FFF0
FFA8
001A
0034
0005
FFFC
FFCE
FFE4
0019
FFDD
0041
0048
0019
FFD0
FFB3
0008
FF7E
0010
FFF8
0020
0000
FFB8
FFB2
FFD8
FFE5
FFE4
FFDE
0054
FFDD
0027
0035
0028
0032
FFEA
0007
002D
FFCA
0031
004F
0000
001C
FFCC
FFBF
0010
FFF6
FFBB
0046
FFF3
FFC2
FFC7
FFCE
FFC7
FFE8
FFE0
005A
FFCF
000C
FF89
FFBB
0012
FFA7
FFCF
0015
0009
0000
0021
FFEE
001F
FFCE
0002
0030
0017
FFD0
005E
FFDE
FFCA
FFF9
FFE2
FFEC
002E
FFF1
0007
000A
FFCE
FFB5
FFC1
0022
FFB9
FFB4
FFED
FFFE
FFED
FFF5
0040
0032
0053
FFDD
FFED
000E
001F
0006
FFFE
0000
0018
000F
FFD1
0015
FFDB
FFF0
001B
FFE8
FF8A
FF92
0009
FFD3
FFEC
0001
FFCB
002B
FFE5
0041
0047
0059
FFFF
FFFE
0011
0007
FFF9
FFF1
0015
FFFD
FFD9
FFA8
FFDC
FFFD
FFFE
001D
FFDD
FF7C
FFB3
0022
FFDD
FFEA
0005
FFF4
0056
0006
FFFF
FFD6
FFAA
FFBB
FFB7
FFFA
FFBB
FFCF
FF92
001B
0013
FFE9
FFB9
FFFD
0022
002C
0025
FFCF
0017
FFD3
000B
FFEF
FFDE
FFD8
FFF1
FFE8
FFF4
001A
FFD6
FFC0
FFDD
FFD1
0017
FFD5
FFDE
FFA9
FFEB
FFCC
FFE4
FFD7
FFBB
0020
FFFD
FFE6
0000
0030
FFD2
0003
0001
FFC3
FFE3
0000
FFF5
0005
0024
FFF3
FFED
FFF5
FFA1
0018
0010
0009
FFF1
FFFE
FFDE
FFF2
FFE9
FFEC
0043
FFFF
000D
FFFC
002D
FFF4
001A
0023
FFD2
001C
0026
0031
0014
FFF4
0004
000F
0004
FF6F
0012
0006
000E
FFF8
FFFA
001B
0017
003C
FFF9
0020
0016
FFA3
001C
0010
FFF1
0013
001F
FFD5
0015
0018
0027
0016
FFF6
FFDC
FFE6
000A
0002
009B
0028
0004
FFD9
FFEA
0041
0073
001C
001E
0099
0021
FFF9
0038
0014
FF9F
001E
FFE5
FFEE
FFBE
0038
FFC0
0004
FFE0
FF86
0004
0047
FFF0
0016
FFD7
FFDA
0057
FF85
FFE2
FFC0
004E
000B
FFBF
FFB6
FFFE
FFE6
0008
FFAB
0005
FFF9
FFE6
FFD2
0003
FFD5
0000
0027
001E
0026
FFDC
FFBB
FFF4
003C
003E
0044
FF89
FFE4
FFA6
0053
0006
FFC1
FFB6
FFF6
FFE0
0029
0041
001D
000A
0012
FFA9
FFF4
FFDF
FFDD
0015
0005
0017
FFBD
FFA1
FFE3
0013
0026
002B
0002
0008
0034
0037
FFE3
0028
000C
0019
0001
001F
001F
0019
000B
FFDC
FF9F
FFE3
FFC2
FFBF
0021
FFF3
FFF8
FFF6
FFFC
FFFA
0002
FFBD
FFAD
FFFB
0000
0022
0023
FFF6
0045
0008
000E
000F
FFF2
0003
0010
000C
0028
FFEB
FFDD
FFD9
FFED
0019
FFE9
FFE1
FFD5
FFE6
0004
FFEE
FFB2
FFA3
0012
FFFA
0031
0016
FFFC
FFDE
FFF0
FFDA
0032
FFF9
000D
0006
0032
0025
000F
0016
0003
0015
FFE9
004E
FFEF
0061
FFDE
FFA8
000B
004B
0011
FFF7
FFFF
0044
001A
FFFA
FFF9
FFF3
FFF0
0027
FFE0
FFEE
FFA9
0006
FFAF
FFD4
0010
0000
FFE1
0002
0062
FFDF
005C
FFCF
FF95
0015
0049
002D
FFE0
0019
FFFC
001F
FFFA
FFC4
FFF1
0034
002F
FFD8
FFEC
FFBB
0004
FFCD
FFC5
0015
FFF1
FFC4
FFE3
0010
0014
003C
002F
0021
0001
0002
0017
FFBC
FFF9
FFF3
000F
0026
FFDC
FFD8
002D
0021
FFAC
FFF1
0040
FFF7
FFF5
000D
FFFA
FFD3
0019
FFCE
0002
FFEA
0034
000E
000C
FFCF
FFE2
FFDF
001C
FFD4
FFD8
001F
0005
FFEA
FFD6
000A
002A
FFA5
0008
004B
FFE7
FFED
FFFC
0008
FFB2
FFF9
FFFE
0018
FFDA
FF9D
FFF4
001D
FFEE
001E
003C
0019
FFDB
FFD3
0000
FFED
FFD4
FFCF
FFF8
0008
000E
FFAE
FFF8
FFD2
FFFA
0009
FFC7
FF9D
0000
0007
002F
000D
FFC4
0017
002E
FFF1
0022
0026
FFE3
FFF1
FFAD
FFBC
FFFD
0008
FFF6
0053
FFF0
002C
FFE7
001C
FFFA
0016
001F
FFE1
FFCD
0026
FFF6
FFE9
FFEE
FFBF
FFA2
FFDB
FFF8
000A
0007
FFF5
0021
FFD9
FFEB
0049
002A
FFEB
006F
FFEB
FFD0
FFF1
FFFE
FFEE
0036
000E
0004
0016
FFBC
001F
0010
000B
FFF8
FFD7
FFF4
0010
0010
0026
FFC8
FFF2
FFC8
FFC3
FFE0
FFFE
FFD0
0000
FFF3
FFFE
001D
0020
FFF4
004C
0000
FFF2
0029
FFB4
FFB5
FFB3
0050
FFED
0037
003F
FFFB
0038
FFF4
FFCB
0005
FFF6
FFB9
FFE1
0016
FFE6
0003
FFFC
FFE0
FFDC
FFCE
FFD1
FFFB
0008
FFE7
002C
FFFE
FF8F
FFA9
0069
0000
001B
0038
0010
004D
0009
002E
0008
FFD6
FFE4
FFE7
001A
FFE6
FFF1
FFD1
FFE5
FFE7
FFCF
FFE3
FFFB
0013
FFFF
003E
0001
FFD1
FFE0
0000
FFBD
FFB9
0007
0043
FFE6
0016
0032
FFF2
FFD8
FFDD
FFDF
0013
FFFE
FFED
FFBE
0037
FFFD
FFFD
FFFB
FFEB
0029
FFF9
FFEE
0014
FFD4
FFE7
000A
FFBC
FFB1
002E
0053
0000
0032
FFF0
FFD8
FFF5
FFCD
FFF5
005B
FFF4
0000
0010
0031
FFFD
FFF6
FFF3
FFE5
0039
FFF4
FFF8
FFFF
003B
0004
000B
0020
FFD8
0024
0016
0015
0007
FFEC
FFE6
FFF3
FFDB
FFF2
0057
0016
FFF3
FFFB
001F
FFEB
0021
000C
0013
001D
001F
0029
0042
001D
FFF2
FFFB
0000
FFE5
002C
0016
001E
0017
000E
FFFB
FFFF
0000
0016
0083
0044
0017
FFF5
0029
FFFF
FFF3
0019
0027
0020
0003
003B
0046
FFDD
0010
FFFB
0021
FFA0
000B
000A
FF80
0000
FFF0
FF7C
0002
0046
FFFD
0036
FFD5
FFEF
0069
FF8C
FFE3
FFC9
0050
0000
FFD3
FFB6
FFFC
FFF0
000F
FFEB
FFFA
003B
FFE4
0016
0009
FFFD
0046
FFFE
FFF2
FFF6
000B
FFE1
0002
FFDC
FFF6
000D
FF78
FFE2
FFB5
005E
0023
FFE3
FFC4
0000
FFE1
003A
0014
0017
0029
0014
FFB0
FFE0
FFE0
FFCD
0008
FFE4
FFEA
FFF0
FFEE
000E
FFC5
FFE3
FFEC
0024
007C
0016
0016
001D
FFD8
FFFE
000E
FFB5
0018
001C
0027
0034
0003
FFB9
FFE5
FFD4
FFD5
0007
FFEE
0008
0017
0003
0018
FFE3
FFDA
FFB1
000B
0078
FFFC
000D
FFF9
FFC8
FFE5
FFFB
FFB9
0002
0021
0018
FFFB
0043
FFA9
FFDC
FFF4
0039
0027
0008
FFFA
0006
FFFD
0022
FFE1
FFC9
FFA5
0012
FFF6
0063
0052
001E
000A
FFF1
FFED
0035
0008
001B
001B
FFF4
002C
FF99
FFD4
FFFB
0046
FFFC
0031
FFBA
0028
FFF7
002A
0009
0015
0011
FFF1
FFF7
0075
0057
000D
001A
FFFF
000E
0041
FFED
FFFA
FFB6
003D
FFDD
FFDB
0005
0000
FFF2
001B
0040
FFE0
0029
FFF2
0014
0011
0021
000C
FFCC
004E
FFED
FFC6
FFA6
FFDC
0027
003F
0009
FFFC
001C
FFDD
003D
FFF3
FFF4
001C
0019
FFE8
FFFA
0016
0040
0047
0007
0018
FFE6
0011
0017
FFF5
003E
0007
FFD9
FFA8
FFE7
002D
0042
FFF3
FFF0
FFFC
FFE8
FFDB
FFCC
0022
0074
0032
0024
FFEB
0017
001E
0031
0005
0014
FFC0
FFEC
FFF8
004B
FFE5
FFD8
002A
FFDE
FFE8
FFD2
0022
0028
FFBE
FFDE
FFD5
FFD9
FFC4
0000
005A
FFFF
0008
0001
0046
0018
FFF4
001D
FFCA
FFEE
0017
0012
0049
FFF0
FFEE
0026
FFEB
FFE4
FFDA
0014
0032
000F
FFBF
000A
0007
0000
0002
FFC4
FFCB
0021
FFEF
0036
0023
FFE7
002D
FFC9
FFE0
000C
FFFA
0013
002D
000D
FFE5
FFB4
0007
0000
FFB1
FFE6
001F
FFCF
0006
0008
0003
0006
FFCD
FFE9
0052
0016
0017
FFF2
FFCB
FFB9
0001
000D
0011
003A
004A
003D
000F
FFD9
FFA6
001D
000B
FFC9
0012
0047
FFD8
FFF4
0026
FFD9
001B
FFF9
004D
FFF7
0021
002A
0017
000E
FFCF
0015
002A
0033
0047
FFBF
0007
FFE3
FFB5
FFC6
0008
FFEF
0005
0000
0051
FFEE
0005
0043
FFE5
0027
0008
0068
0003
FFE9
FFFA
0021
0005
0012
FFE1
FFEE
0025
0016
FFE0
001E
0015
FFBD
0013
001F
FFFC
001C
001B
0004
FFE3
FFE0
FFD5
0024
0019
FFDB
003A
000F
0001
0011
004E
0018
0053
FFEF
FFF1
002F
0025
0010
0020
FFE1
FFFD
FFDB
FF99
FFE9
0015
0011
000D
FFD7
FFE0
FFCC
001E
000A
FFE4
0043
FFF2
FFF0
FFF7
0002
FFC5
FFC9
0021
005B
FFF1
0040
0039
0024
FFEA
0019
FFF4
FFB8
0003
0025
001F
002B
000F
FFE2
0033
001E
0009
002F
0012
0018
FFC9
FFFC
FFF0
FFBE
FFB5
0012
004E
FFEC
0034
0009
FFF3
000A
FFF3
0017
004A
FFFC
FFFF
000F
002F
0022
FFD4
0034
001A
0001
0035
0019
0011
0029
0023
FFC4
0033
0009
FFCC
0033
000F
0033
FFEE
FFDF
000C
FFFB
FFF6
0051
000E
FFF8
0005
001D
FFE5
0025
0022
0015
0016
003E
001F
003B
0029
0015
FFD0
0023
000F
FFD2
0031
FFEE
0027
000D
0007
0014
FFED
0022
FFEC
0031
0013
FFF9
002E
000A
0012
0023
0002
0008
0013
002F
0055
0025
0020
0011
0028
FF89
0009
0011
FF7B
0002
0012
FFFF
000B
0005
0047
FFDB
000C
002B
FFF0
000F
0015
FFF2
0016
FFB8
0019
0034
FFD9
FFD0
FFED
FFD2
FFE8
002C
FFB5
001A
FFEF
FFE7
003C
FFF5
FFD5
FFF8
FFE7
FFCE
0002
FFD8
FFFF
FFF7
FFD8
FFDE
FFDC
0082
FFE2
0066
FFE6
0024
002B
0003
FFF1
0011
0013
003B
FFE5
FFFE
FFBE
0041
0005
FFDA
FFF5
FFE1
FFBD
FFF5
FFCB
FFE7
FFE8
0017
0064
001A
0006
FFF8
FFC2
FFF0
0001
FFCC
001E
000A
0029
0037
0036
0011
0007
FFC6
0067
FFCE
0007
0041
0009
FFFA
FF70
FFD3
FFDE
FFED
000E
0070
001A
001A
FFF4
FFD1
FFFA
FFFF
FFB7
FFEF
0007
000E
0003
001E
FFA9
FFE9
FFFC
002D
FFD1
0011
0043
0009
0008
FF74
FFD7
FFC8
FFF7
0021
FFD7
0040
FFDD
003C
FFF8
0000
0003
0005
0007
0020
0020
FFF7
0017
FFB7
FFED
FFF5
0036
FFF7
0034
FFEA
0029
FFF1
0056
0036
0003
FFF7
0034
FFD4
0040
FFE8
0059
FFE5
FFEC
0013
0012
FFEF
002B
0005
0019
FFF4
FFC6
FFE1
0017
FFF3
0006
0042
FFEE
0018
FFF1
0023
0034
0010
FFFF
FFD1
002E
FFF3
FFE1
FFAC
FFCF
003A
0029
FFE6
FFEC
003B
0017
002D
000A
FFD1
FFDA
0030
0004
0014
0041
0011
FFFA
001D
FFC7
FFFB
000B
0045
FFE3
0028
0008
FFF2
FFB9
FFF1
005E
003A
FFF1
FFF5
FFE3
000D
000F
FFD4
0016
0094
001E
0001
0032
0046
000F
0027
001D
FFD6
0003
0009
004D
002A
FFBA
FFE5
FFFC
FFF4
0036
FFE0
FFD4
FFF7
FFD9
FFCD
FFEA
FFF3
FFCF
FFFD
0070
000B
FFFD
FFEF
003A
001B
FFF7
0022
FFC2
0010
0018
0002
0022
FFB3
FFC3
FFE4
FFCE
000D
FFD0
FFB1
FFF7
FFCE
001B
FFA8
0046
0019
FFEF
FFDB
FFD4
0025
FFF7
002B
0016
FFF4
0033
FFC4
FFD2
FFF1
FFF2
0004
0022
0019
FFD7
FFA5
000D
FFFD
FF9E
FFD2
FFB6
000C
FF8D
0044
0019
FFD6
FFBC
FFCB
FFF5
0009
FFEA
0027
FFFE
0021
FFCB
FFD7
FFC7
FFF7
0040
0045
0009
FFE0
FF8F
0009
FFF2
FFA6
0000
0059
FFC7
FFEC
0024
FFE8
001D
FFF1
003D
FFD5
0026
000A
002A
FFF9
FFF5
FFD1
FFE1
FFEF
0019
001E
FFB7
FFEB
FFE2
FFEC
FFE5
FFD3
000F
001A
006F
FFF5
0012
004F
0001
0036
0006
0068
FFF3
FFF1
FFE9
001D
0002
0010
FFDB
FFDA
0010
0027
0015
FFE7
000D
0003
0003
0000
FFF4
0016
003A
FFD7
FFF6
FFE8
0032
001E
0000
003E
0010
0009
FFFE
FFF7
001D
0007
0048
FFED
FFEC
0029
0027
001D
0026
FFC2
FFDB
FFD9
FFA3
FFCD
FFFE
0003
0004
FFFE
0000
0029
0037
0000
0047
0020
001A
0015
FFEA
FFF4
FFD9
FFE2
FFF6
FFCB
FFE6
0029
0003
0012
FFD9
0000
FFE7
FFB1
FFE7
001A
0005
FFF5
FFF9
FFE7
0032
002F
FFEE
001C
000B
FFF7
002F
FFD8
000D
FFF1
0000
0008
FFD6
FFF0
0013
006A
FFD1
0017
FFF7
0018
0016
0030
0035
000D
FFFB
FFF7
FFEF
001E
0013
FFE9
0015
0003
FFE8
0013
0009
FFB0
001D
0003
FFCB
0012
FFF9
003F
0060
FFC9
0012
0001
002A
0023
0035
0028
0019
FFE8
FFD9
FFDC
FFBC
002E
0014
0012
001E
FFDC
0017
000E
FFBF
0016
000B
FFCD
002D
FFF3
0038
FFFC
FFF6
001D
FFF5
0042
FFD0
0030
0009
FFF8
FFFC
FFF9
FFF5
FFBF
0043
0025
0013
0029
FFE3
FFF0
003B
0001
FFDC
001F
0014
0026
001F
0032
FFEF
0000
0000
FFE3
002C
FFBB
001B
001D
FFF9
FFFA
000A
0000
0020
FFCA
0006
000B
FFC5
FFCD
FFDA
003D
0001
FFD1
FFFD
FFE2
0016
0013
0025
0034
0037
002A
0053
0011
000D
001B
FF98
0012
FFD0
FFCA
FFC1
0077
FFDA
0061
FFD8
001A
0035
0015
FFF2
0038
0029
0061
FFFD
0005
FFB7
0044
FFEA
FFE0
FFF1
0004
FF9A
0025
001A
FFC3
FFD6
0006
0037
FFD9
FFD9
FFB7
FFD0
0029
FFF1
000E
0019
0008
0036
0036
0032
0019
0018
FFC3
004B
FFC8
0016
004D
0015
0000
FF91
FFD1
FFD5
FFE2
0005
0040
FFEA
FFF5
FFD1
FFDC
0012
FFDC
0010
0023
002B
0016
0023
FFF5
000C
FFE3
FFFB
FFDE
FFBF
002B
0049
000A
FFFE
FF88
FFCC
FFC8
FFDB
0021
FFC1
002E
FFD8
00A2
0001
0009
000C
FFFA
002A
0041
0015
000F
FFFD
0016
FFE9
000B
FFD5
0007
0044
0014
FFEB
FFEF
FFFE
002B
004E
0004
0038
FFB6
002C
FFE2
0090
FFE5
0004
0000
FFF3
0008
0037
001E
002B
0029
FFDE
0000
002D
0002
002C
0033
0012
FFF2
0000
0005
001B
003E
FFF7
0004
FFDB
FFD8
FFB7
FFDF
FFD9
0022
FFF6
FFFE
0000
004E
001C
002C
0017
FFC6
FFF4
0028
0006
0014
003C
001F
FFFC
0031
FFC5
000F
000C
004F
0005
FFEC
FFE5
FFCF
FFEA
FFD5
002D
0007
0014
001B
0008
FFFB
FFF4
FFE0
FFCE
FFF1
FFEE
FFE2
0023
002F
0016
001A
002F
FFB8
0002
FFFC
003B
0047
FFB5
FFDA
FFFB
FFD8
000B
FFFF
FFD0
0003
0015
FFF2
FFF5
FFEB
FFFF
FFE8
FFF1
FFDD
FFF1
0034
FFF8
0078
FFB5
FFE5
003D
005D
0031
0050
002B
FFC6
FFCC
FFEC
FFDD
0000
FFF1
FFC5
FFEA
FFF0
FFFE
FF86
0048
0039
FFE5
FFEE
FFEC
001F
0028
FFFE
004C
FFA9
FFD7
0038
0064
002C
0062
0038
FFDC
FFEF
FFE2
FFD0
0015
0019
0006
FFF9
FFDF
FFE9
FF7F
0064
0052
0001
FFE3
FFF2
0015
001A
FFF8
003D
0006
0040
FFD5
FFE6
FFDB
000F
0038
FFD3
FFFE
FFF5
FFD5
002E
0020
000D
FFE7
0021
FFF6
FF9B
0015
0031
FF6B
FFC0
0001
0011
0036
000B
002B
0009
0017
FFC9
FFFF
FFF5
001E
0022
FFDA
000E
0000
000A
FFFB
FFEA
0018
002B
0029
0004
FFA9
0016
000B
FF88
FFD5
0012
002C
FFE0
FFE3
001C
0027
FF8D
FFC8
FFFF
FFD0
003A
001B
FFEA
0025
001F
FFFD
0009
0000
0013
003A
FFBF
FFE6
0002
001D
0039
002B
0037
000C
0008
FFED
FFE4
0021
001E
FFAA
FFE6
0013
FFF0
0036
FFE2
0022
0019
0005
FFD9
FFFF
0021
0044
FFD7
FFED
FFFF
0010
001B
0027
001B
003A
001B
0005
0014
FFE7
FFFC
FFDC
0002
FFDF
FFFB
FFDF
0006
FFF6
001F
0006
FFEC
FFDD
FFFA
0020
003F
FFFD
FFF9
FFB1
0000
0016
FFFF
0015
0035
0015
001A
0022
FFD8
0014
FFD8
0009
0007
FFF5
FFE1
FFFE
006B
FFD1
0004
FFFA
0013
FFF0
0033
001E
000F
0005
FFBA
0002
0026
FFED
0027
003A
0000
0012
0000
001F
000C
0011
FFF1
0021
000B
FFFC
0049
0072
FFD9
0009
0001
0029
0009
0042
002B
0022
FFE8
FFED
FFF1
FFD5
0044
0012
0017
0016
FFE0
000B
001D
0027
0007
FFC8
0027
0005
FFF4
004A
FFCA
FFCB
FFD6
000F
FFD3
FFC3
0010
0040
FFF9
FFE9
FFEB
FFF6
FFC6
0041
001A
001D
0028
FFDA
FFF6
0045
0027
FFF4
000F
002A
0028
002C
002C
FFE7
FFBF
0001
0028
FFBE
FFEB
0009
0043
0002
0013
0003
001C
0001
0029
0014
0010
0014
0016
FFCF
003C
000B
FFE3
FFF9
FFE1
FFEF
FFFE
0020
0026
0028
0015
0027
FFF5
FFDE
0002
FF78
000D
FFED
0017
000E
FFF8
0010
FFE7
FFE4
0006
0037
FFEB
FFA9
FFF6
0008
FF9D
003E
FFB2
FF9B
FFDC
FFE7
FFF1
0018
003C
FFFE
006E
004C
FFF4
FFE5
0009
0041
0000
000F
0026
002D
0061
001E
0027
FFDF
FF87
FFFF
FFFE
FFE8
FFCD
FF86
FF9B
FF9D
FFC3
FFF3
0001
FF8D
FFA7
0020
FFE2
FFE1
0022
FFF7
0030
FFFD
0012
002B
0013
0033
FFFC
0007
000B
001A
0002
0050
0046
001E
FFDA
0006
FFE2
FFD5
FFE7
FFF2
FF72
FF6B
0000
FFB7
FFCB
0019
FF91
0045
0063
0052
0021
0059
0010
FFE8
FFEF
0019
000A
FFF1
001C
FFE7
000E
FFDA
FFFA
FFDD
0006
003E
000F
000F
FFF7
000A
0025
002A
0002
FF84
0021
0014
0024
FFF3
0043
FFDF
FFC3
FFC6
FFE6
007A
005C
FFEE
0042
FFF6
00A6
0061
0054
000B
0028
002C
0003
FFEF
FFF4
0014
0031
FFF3
000C
FFE6
FFDF
FFDE
FFCD
FFE7
0049
0027
0021
FFEB
006E
005D
FFD2
005C
FFEE
009D
0049
0039
FF7F
000D
FF9E
FFA6
000D
000F
004A
0013
FF93
000D
FFEE
FFF2
0007
FFD2
FFCF
004C
0034
0023
002D
0024
0011
0012
0000
0001
0009
000F
FFF3
FFBD
002D
FFB0
FFBB
000D
001F
0073
003E
FFB6
FFC5
FFB6
0003
FFF0
005C
FFE4
FFD1
FF7A
FFB0
0025
FFFE
FFF9
0009
FFEF
FFF2
0000
FFF4
FFF8
0003
0004
003C
FFE4
FFFE
0056
0071
0036
0054
FFBB
FFAE
0009
FFE9
0037
FFDA
FFCF
FF6C
FFBA
003F
0024
0010
002E
0009
FF94
002E
0040
FFF7
0004
FFF7
003D
FFE0
0017
005C
007A
0040
005A
003E
FFF8
0007
002A
FFE2
0031
0045
001A
000C
0020
0029
0017
004A
0017
FFB0
0049
004D
FFF4
003E
0008
0014
FFCD
FFB2
FFD3
FFAD
FF6F
FFCE
0050
0003
0026
0052
FFF0
005B
004C
002B
0022
0055
0003
FFE6
0063
0034
FFBE
0011
000F
001E
0033
002B
002C
FFE6
FFD2
0000
FFC7
FF98
FFF2
0037
FFF5
FFFE
0026
000C
FFFD
000B
0013
0019
0058
0006
FFD9
0064
0008
FFBB
0006
0012
0030
FFEE
FFF7
001C
005B
FFA2
FFF0
FFF6
0002
0050
004F
0003
0006
0006
0012
FFE9
FFF4
000A
001D
0063
0000
0060
FFF1
0055
0016
FFE6
FFEC
002C
000B
0002
0038
0055
FF9C
000F
0026
0007
004C
FFEC
0018
001B
003E
FFF1
0005
000E
0049
FFE5
0074
0001
005D
001F
006F
0007
FFF9
FFEE
0021
FFDD
FFE6
0016
002D
0013
FFE7
003E
0026
0016
FFD7
000F
0030
0029
FFCE
0011
0016
003D
FFF3
FFEB
FFC3
0037
0022
0033
0013
0022
001C
000E
FFE1
FFE0
0000
0004
FFF6
FFA3
0007
0019
0010
FFB3
0023
0045
0074
0076
0083
FFED
FFFC
0035
FFEA
FFB4
0037
002B
000D
002C
0033
0010
000D
FFDC
0024
0014
0000
FFDD
0030
0015
FFF6
0065
FF95
0009
001D
0082
0036
006C
FFE5
FFD7
0005
000A
0000
FFF0
0009
0013
0074
FFD2
001D
005A
FFEB
0004
0021
FFF8
FFD9
0047
0023
FFEC
006B
FFCC
FFD2
FFEC
001E
FFDB
FFDC
001E
0038
FFFA
0021
FFF9
0000
001A
0000
0080
FFCB
0025
006E
0021
0017
0024
001B
FFC9
002B
000A
0016
0049
FFF4
FFB4
000E
003D
FFD8
0008
0011
0037
FFF6
002E
FFEC
0020
001A
0024
0011
FFF9
FFFE
0032
0027
001B
002E
0014
FFBB
0018
FFEE
0012
0040
0054
0016
FFFC
FFDF
FFDC
FFA6
001B
FFEC
007D
0026
001C
0031
0018
002B
000F
FFED
FFFF
0051
0020
FFE5
0005
004A
FFB0
0028
FFCF
FFA7
FFDC
0033
0029
000A
FFCF
FFF9
FFA6
0019
0011
00A8
0000
FF2B
FF49
FFFB
FF7F
FF92
FFAE
FFB4
006D
